unsigned char model_tflite[] = {
    0x1c, 0x00, 0x00, 0x00, 0x54, 0x46, 0x4c, 0x33, 0x14, 0x00, 0x20, 0x00,
    0x1c, 0x00, 0x18, 0x00, 0x14, 0x00, 0x10, 0x00, 0x0c, 0x00, 0x00, 0x00,
    0x08, 0x00, 0x04, 0x00, 0x14, 0x00, 0x00, 0x00, 0x1c, 0x00, 0x00, 0x00,
    0x98, 0x00, 0x00, 0x00, 0xf0, 0x00, 0x00, 0x00, 0x5c, 0x07, 0x00, 0x00,
    0x6c, 0x07, 0x00, 0x00, 0x20, 0x0d, 0x00, 0x00, 0x03, 0x00, 0x00, 0x00,
    0x01, 0x00, 0x00, 0x00, 0x10, 0x00, 0x00, 0x00, 0x00, 0x00, 0x0a, 0x00,
    0x10, 0x00, 0x0c, 0x00, 0x08, 0x00, 0x04, 0x00, 0x0a, 0x00, 0x00, 0x00,
    0x0c, 0x00, 0x00, 0x00, 0x1c, 0x00, 0x00, 0x00, 0x3c, 0x00, 0x00, 0x00,
    0x0f, 0x00, 0x00, 0x00, 0x73, 0x65, 0x72, 0x76, 0x69, 0x6e, 0x67, 0x5f,
    0x64, 0x65, 0x66, 0x61, 0x75, 0x6c, 0x74, 0x00, 0x01, 0x00, 0x00, 0x00,
    0x04, 0x00, 0x00, 0x00, 0x90, 0xff, 0xff, 0xff, 0x0a, 0x00, 0x00, 0x00,
    0x04, 0x00, 0x00, 0x00, 0x08, 0x00, 0x00, 0x00, 0x6f, 0x75, 0x74, 0x70,
    0x75, 0x74, 0x5f, 0x30, 0x00, 0x00, 0x00, 0x00, 0x01, 0x00, 0x00, 0x00,
    0x04, 0x00, 0x00, 0x00, 0x8a, 0xf8, 0xff, 0xff, 0x04, 0x00, 0x00, 0x00,
    0x0e, 0x00, 0x00, 0x00, 0x6b, 0x65, 0x72, 0x61, 0x73, 0x5f, 0x74, 0x65,
    0x6e, 0x73, 0x6f, 0x72, 0x5f, 0x34, 0x00, 0x00, 0x02, 0x00, 0x00, 0x00,
    0x34, 0x00, 0x00, 0x00, 0x04, 0x00, 0x00, 0x00, 0xdc, 0xff, 0xff, 0xff,
    0x0d, 0x00, 0x00, 0x00, 0x04, 0x00, 0x00, 0x00, 0x13, 0x00, 0x00, 0x00,
    0x43, 0x4f, 0x4e, 0x56, 0x45, 0x52, 0x53, 0x49, 0x4f, 0x4e, 0x5f, 0x4d,
    0x45, 0x54, 0x41, 0x44, 0x41, 0x54, 0x41, 0x00, 0x08, 0x00, 0x0c, 0x00,
    0x08, 0x00, 0x04, 0x00, 0x08, 0x00, 0x00, 0x00, 0x0c, 0x00, 0x00, 0x00,
    0x04, 0x00, 0x00, 0x00, 0x13, 0x00, 0x00, 0x00, 0x6d, 0x69, 0x6e, 0x5f,
    0x72, 0x75, 0x6e, 0x74, 0x69, 0x6d, 0x65, 0x5f, 0x76, 0x65, 0x72, 0x73,
    0x69, 0x6f, 0x6e, 0x00, 0x0e, 0x00, 0x00, 0x00, 0x68, 0x06, 0x00, 0x00,
    0x60, 0x06, 0x00, 0x00, 0xf0, 0x05, 0x00, 0x00, 0xe0, 0x03, 0x00, 0x00,
    0xc4, 0x03, 0x00, 0x00, 0x94, 0x03, 0x00, 0x00, 0x44, 0x03, 0x00, 0x00,
    0xb4, 0x00, 0x00, 0x00, 0xac, 0x00, 0x00, 0x00, 0xa4, 0x00, 0x00, 0x00,
    0x9c, 0x00, 0x00, 0x00, 0x94, 0x00, 0x00, 0x00, 0x74, 0x00, 0x00, 0x00,
    0x04, 0x00, 0x00, 0x00, 0x3e, 0xf9, 0xff, 0xff, 0x04, 0x00, 0x00, 0x00,
    0x60, 0x00, 0x00, 0x00, 0x10, 0x00, 0x00, 0x00, 0x00, 0x00, 0x00, 0x00,
    0x08, 0x00, 0x0e, 0x00, 0x08, 0x00, 0x04, 0x00, 0x08, 0x00, 0x00, 0x00,
    0x10, 0x00, 0x00, 0x00, 0x24, 0x00, 0x00, 0x00, 0x00, 0x00, 0x06, 0x00,
    0x08, 0x00, 0x04, 0x00, 0x06, 0x00, 0x00, 0x00, 0x04, 0x00, 0x00, 0x00,
    0x00, 0x00, 0x00, 0x00, 0x0c, 0x00, 0x18, 0x00, 0x14, 0x00, 0x10, 0x00,
    0x0c, 0x00, 0x04, 0x00, 0x0c, 0x00, 0x00, 0x00, 0x7b, 0x01, 0xe4, 0x6a,
    0xfa, 0x41, 0x5a, 0xd4, 0x02, 0x00, 0x00, 0x00, 0x02, 0x00, 0x00, 0x00,
    0x04, 0x00, 0x00, 0x00, 0x06, 0x00, 0x00, 0x00, 0x32, 0x2e, 0x31, 0x38,
    0x2e, 0x30, 0x00, 0x00, 0xaa, 0xf9, 0xff, 0xff, 0x04, 0x00, 0x00, 0x00,
    0x10, 0x00, 0x00, 0x00, 0x31, 0x2e, 0x35, 0x2e, 0x30, 0x00, 0x00, 0x00,
    0x00, 0x00, 0x00, 0x00, 0x00, 0x00, 0x00, 0x00, 0xc4, 0xf4, 0xff, 0xff,
    0xc8, 0xf4, 0xff, 0xff, 0xcc, 0xf4, 0xff, 0xff, 0xd0, 0xf4, 0xff, 0xff,
    0xd6, 0xf9, 0xff, 0xff, 0x04, 0x00, 0x00, 0x00, 0x80, 0x02, 0x00, 0x00,
    0x7d, 0x44, 0x8b, 0x3e, 0x82, 0xfd, 0xa6, 0x3e, 0x11, 0xa5, 0xb2, 0xbd,
    0x22, 0x44, 0x82, 0xbd, 0x2e, 0xef, 0x4a, 0x3f, 0x27, 0x3f, 0x9e, 0xbe,
    0x40, 0xbd, 0x62, 0x3f, 0xc2, 0x5c, 0x8d, 0x3e, 0x74, 0x20, 0x57, 0x3f,
    0x78, 0x22, 0x93, 0xbb, 0xa3, 0xf6, 0x4f, 0x3f, 0x24, 0xa1, 0xd6, 0x3d,
    0x44, 0x87, 0xee, 0x3d, 0xf6, 0xe1, 0xb5, 0x3e, 0x17, 0x03, 0x60, 0x3f,
    0xa1, 0x10, 0xdb, 0x3e, 0xcf, 0x6b, 0xe0, 0x3e, 0x6d, 0xba, 0xab, 0x3e,
    0x38, 0x02, 0x60, 0x3f, 0xd6, 0x79, 0xc9, 0x3e, 0x68, 0x77, 0x58, 0xbd,
    0xf7, 0x4e, 0xa9, 0x3e, 0x0a, 0x08, 0xc7, 0xbe, 0x2c, 0x90, 0x83, 0xb9,
    0xa8, 0x04, 0x06, 0x3f, 0xb1, 0xcd, 0x80, 0xbf, 0x69, 0xc6, 0x50, 0x3f,
    0xb8, 0x04, 0x1a, 0xbf, 0xb5, 0x58, 0x25, 0x3f, 0xf4, 0x9b, 0xe0, 0xbd,
    0xbe, 0x83, 0x4c, 0xbf, 0x47, 0x8a, 0x42, 0x3f, 0x80, 0xba, 0x94, 0xbe,
    0x3f, 0x38, 0x07, 0x3f, 0xe0, 0x0a, 0x96, 0xbc, 0x16, 0x60, 0xb6, 0x3e,
    0x44, 0x57, 0x17, 0xbf, 0x55, 0x3b, 0xb1, 0x3e, 0x59, 0x1b, 0xae, 0xbe,
    0x3f, 0xad, 0xdb, 0x3e, 0x9a, 0x81, 0x92, 0xbe, 0x24, 0x67, 0x99, 0x3e,
    0x68, 0xc8, 0x7d, 0xbe, 0x55, 0x15, 0xd8, 0xbc, 0x84, 0xe7, 0x84, 0xbe,
    0x05, 0x6b, 0x10, 0xbd, 0xfc, 0x69, 0xb5, 0xbd, 0xa7, 0x52, 0x6d, 0x3f,
    0x00, 0x5b, 0xef, 0xbe, 0xa5, 0x2e, 0x75, 0xbc, 0x4e, 0xb8, 0xdc, 0x3e,
    0xbc, 0x56, 0x40, 0x3d, 0x12, 0x53, 0x8d, 0x3e, 0x3d, 0x7a, 0x2b, 0xbf,
    0x96, 0x67, 0xc0, 0xbe, 0x0c, 0x1d, 0x19, 0x3e, 0x64, 0x18, 0x63, 0xbf,
    0x9c, 0x4e, 0x03, 0x3f, 0x0f, 0x4f, 0x53, 0x3f, 0x3e, 0xa5, 0xe0, 0xbe,
    0xb8, 0x90, 0xf9, 0xbc, 0xb0, 0x7e, 0x23, 0x3f, 0x5c, 0x9e, 0x45, 0x3f,
    0x52, 0x79, 0xd5, 0x3e, 0x76, 0x6e, 0x11, 0x3f, 0x48, 0x1d, 0x09, 0x3f,
    0x50, 0xfc, 0x25, 0x3e, 0x53, 0x5e, 0x28, 0x3f, 0xd4, 0xb6, 0xeb, 0xbe,
    0xf8, 0x37, 0x3e, 0x3e, 0x67, 0x98, 0x04, 0x3d, 0x3c, 0xdb, 0x76, 0x3e,
    0x83, 0x2c, 0xd0, 0xbe, 0x61, 0x10, 0x5c, 0xbe, 0xd8, 0xfd, 0xde, 0xbe,
    0x30, 0x33, 0xa2, 0x3d, 0xfd, 0x76, 0x8e, 0xbe, 0x59, 0xf1, 0xe4, 0xbe,
    0xff, 0xf7, 0xa8, 0xbd, 0x11, 0x9e, 0x00, 0x3d, 0x1c, 0x79, 0x12, 0x3e,
    0x2f, 0x36, 0xaf, 0xbd, 0x99, 0x1c, 0x99, 0x3e, 0x22, 0xdf, 0x01, 0xbe,
    0x77, 0xc6, 0x1b, 0xbe, 0x1d, 0xb1, 0xb6, 0xbe, 0x0c, 0xa4, 0x05, 0x3f,
    0x40, 0xd6, 0x0a, 0xbe, 0x99, 0x57, 0xd1, 0x3d, 0xaa, 0xd3, 0x1e, 0xbe,
    0x0a, 0x56, 0x55, 0xbe, 0x1d, 0x6e, 0x50, 0x3e, 0x0a, 0xdc, 0x02, 0xbf,
    0x68, 0x3e, 0x5a, 0xbe, 0x8f, 0xb8, 0x31, 0x3f, 0x0e, 0x9b, 0xa8, 0xbe,
    0x99, 0x33, 0x9e, 0xbe, 0x8c, 0xe1, 0x6c, 0x3f, 0x68, 0x03, 0xeb, 0xbe,
    0x21, 0x93, 0xd5, 0xbd, 0x00, 0xe3, 0x39, 0xbb, 0x72, 0x6e, 0x82, 0xbe,
    0x90, 0x41, 0x30, 0x3d, 0x40, 0x22, 0x65, 0xbc, 0x1e, 0xf6, 0x96, 0xbe,
    0x58, 0x82, 0x64, 0xbd, 0xf6, 0xa1, 0x34, 0xbe, 0xb8, 0xc6, 0x86, 0xbd,
    0x80, 0x15, 0xa8, 0x3c, 0x96, 0x49, 0x09, 0xbe, 0x25, 0x6c, 0xa9, 0xbd,
    0xbb, 0x25, 0x0f, 0x3f, 0x16, 0xd1, 0xb5, 0xbe, 0x13, 0x4d, 0xbe, 0x3d,
    0x6b, 0x8d, 0x72, 0xbf, 0x31, 0x00, 0x8e, 0x3e, 0x53, 0xca, 0x2e, 0x3f,
    0xd5, 0xa6, 0xad, 0xbd, 0xfb, 0x94, 0xf7, 0xbe, 0x59, 0x9a, 0x92, 0x3e,
    0x0e, 0xe5, 0x93, 0xbf, 0x36, 0x3e, 0x8a, 0xbf, 0x8b, 0x94, 0x65, 0xbf,
    0x09, 0xdd, 0xa0, 0xbf, 0xd9, 0xcc, 0x2b, 0xbf, 0x2e, 0xfc, 0xba, 0xbe,
    0x6d, 0xb1, 0xaf, 0x3e, 0xe1, 0xbe, 0x80, 0x3e, 0x58, 0x1c, 0x83, 0x3e,
    0x0f, 0x30, 0xc1, 0x3d, 0xc9, 0x69, 0xdb, 0x3e, 0x2f, 0x0e, 0x30, 0xbe,
    0xba, 0x35, 0x06, 0x3f, 0x3d, 0xdc, 0x7d, 0xbf, 0x20, 0xb2, 0x4c, 0x3f,
    0x81, 0xb9, 0x8d, 0xbe, 0x6c, 0xe2, 0x3e, 0x3d, 0x68, 0x02, 0x36, 0x3d,
    0x0b, 0x1f, 0xdc, 0xbd, 0xbc, 0x20, 0x40, 0x3e, 0xe8, 0x43, 0xdf, 0x3e,
    0x87, 0xe8, 0x95, 0xbf, 0x69, 0xd1, 0x60, 0x3f, 0xbf, 0x1e, 0xc2, 0xbe,
    0xb3, 0x62, 0xa5, 0x3e, 0x78, 0x15, 0xb1, 0xbe, 0xa6, 0xb0, 0x08, 0x3f,
    0x99, 0x7d, 0xf0, 0xbe, 0x7b, 0x89, 0x06, 0xbe, 0xf6, 0x14, 0x98, 0x3e,
    0xcb, 0xf0, 0xfa, 0x3e, 0x49, 0xf6, 0xb8, 0xbe, 0xef, 0x06, 0x07, 0xbf,
    0x3d, 0x8e, 0x56, 0x3f, 0xa3, 0xd5, 0x18, 0xbf, 0xe8, 0x0e, 0x1e, 0x3f,
    0xb7, 0xce, 0x39, 0xbe, 0x5a, 0x69, 0x26, 0xbf, 0xea, 0x86, 0xb7, 0x3e,
    0x69, 0xe7, 0xfb, 0xbb, 0x62, 0xfc, 0xff, 0xff, 0x04, 0x00, 0x00, 0x00,
    0x40, 0x00, 0x00, 0x00, 0xa4, 0xc7, 0x68, 0xbe, 0xb3, 0x85, 0x87, 0xbe,
    0x00, 0xbb, 0x1f, 0xbe, 0x99, 0x60, 0x78, 0xbe, 0xb4, 0x89, 0x37, 0xbd,
    0x1b, 0x9e, 0xf5, 0x3d, 0x15, 0x89, 0x65, 0x3e, 0x22, 0x7c, 0x7d, 0xbc,
    0xb9, 0x46, 0x77, 0xbc, 0x55, 0x0b, 0x59, 0x3e, 0x00, 0x00, 0x00, 0x00,
    0x96, 0x19, 0xcd, 0x3c, 0x41, 0x22, 0x3b, 0x3f, 0xca, 0x5a, 0xc1, 0xbe,
    0x49, 0xe8, 0x2a, 0xbc, 0xe4, 0x6f, 0x28, 0x3c, 0xae, 0xfc, 0xff, 0xff,
    0x04, 0x00, 0x00, 0x00, 0x20, 0x00, 0x00, 0x00, 0x00, 0x00, 0x00, 0x00,
    0xd6, 0x51, 0xcd, 0xbc, 0xa6, 0x43, 0xbd, 0x3d, 0xc6, 0xaa, 0x81, 0xbc,
    0x3d, 0x71, 0xd3, 0xbd, 0x8e, 0xe4, 0xa8, 0x3e, 0xfd, 0xb2, 0xb4, 0xbe,
    0xc0, 0x90, 0xf0, 0xbc, 0xda, 0xfc, 0xff, 0xff, 0x04, 0x00, 0x00, 0x00,
    0x0c, 0x00, 0x00, 0x00, 0x28, 0x6c, 0x2f, 0x3e, 0x36, 0x14, 0x35, 0xbf,
    0x82, 0x7e, 0xe1, 0x3f, 0xf2, 0xfc, 0xff, 0xff, 0x04, 0x00, 0x00, 0x00,
    0x00, 0x02, 0x00, 0x00, 0x20, 0xb9, 0xc5, 0x3d, 0x34, 0x6b, 0xa7, 0xbe,
    0x5c, 0x1b, 0x96, 0x3e, 0x10, 0x82, 0xfc, 0xbe, 0x54, 0xca, 0xdb, 0xbe,
    0xb4, 0xc3, 0x82, 0x3e, 0x40, 0x90, 0xd7, 0xbe, 0xf4, 0xc9, 0xc0, 0x3e,
    0xb4, 0x01, 0xed, 0xbe, 0xa0, 0xa2, 0x81, 0x3e, 0xf8, 0xaa, 0x43, 0x3e,
    0xe0, 0x9f, 0xa2, 0xbe, 0x30, 0x7c, 0xf3, 0xbd, 0xd0, 0x04, 0xff, 0xbe,
    0xa8, 0xa6, 0x0d, 0x3e, 0xcc, 0x90, 0xd8, 0xbe, 0x16, 0xf5, 0xd9, 0xbe,
    0xdd, 0x24, 0x13, 0xbe, 0xe8, 0xee, 0x3e, 0x3e, 0xe6, 0x87, 0xe5, 0xbe,
    0x68, 0x50, 0xc4, 0xbe, 0x3c, 0x64, 0x8b, 0xbe, 0xc8, 0xd1, 0xf0, 0xbd,
    0xb8, 0xc3, 0xf8, 0xbe, 0xb8, 0xcb, 0xff, 0xbe, 0x64, 0x61, 0xe3, 0x3e,
    0x10, 0xc1, 0x6e, 0xbe, 0x22, 0x50, 0xb7, 0xbb, 0xa0, 0x46, 0xc5, 0xbd,
    0x60, 0xce, 0xae, 0xbe, 0x94, 0xb3, 0x38, 0x3e, 0xe1, 0x8f, 0x1c, 0x3e,
    0xaf, 0x05, 0x5c, 0x3f, 0x82, 0x9e, 0x1e, 0x3f, 0xf2, 0x06, 0x32, 0xc0,
    0x82, 0xa1, 0x32, 0xc0, 0x8f, 0xe4, 0x28, 0x3f, 0x11, 0x99, 0x86, 0xbf,
    0x90, 0xdb, 0xcf, 0x3e, 0x04, 0x1a, 0xf8, 0x3e, 0xc5, 0x85, 0x13, 0xbe,
    0x24, 0xff, 0xa9, 0xbf, 0x28, 0xf6, 0x94, 0x3e, 0x7b, 0xa3, 0xc1, 0xbf,
    0x96, 0xf1, 0x76, 0xc0, 0x59, 0xce, 0x2d, 0xc0, 0x34, 0xed, 0x0e, 0xc0,
    0x2f, 0x5d, 0xd2, 0xbf, 0xfc, 0x83, 0x9b, 0xbe, 0x52, 0x1b, 0x67, 0xbd,
    0xb8, 0xc0, 0xce, 0xbe, 0x97, 0x84, 0xaf, 0x3a, 0xc0, 0x70, 0xdd, 0x3c,
    0xa0, 0x28, 0xd3, 0xbe, 0x44, 0x76, 0x3e, 0xbe, 0xa0, 0xd8, 0x36, 0x3d,
    0xcc, 0x4c, 0xc7, 0xbd, 0x18, 0x35, 0xb9, 0x3e, 0xfc, 0xd3, 0xc8, 0x3e,
    0x1b, 0xef, 0x3a, 0xbe, 0xa0, 0xc5, 0xd4, 0xbd, 0x2b, 0xcb, 0x84, 0x3e,
    0x7f, 0x44, 0x96, 0x3e, 0x2f, 0x06, 0x2b, 0xbe, 0x18, 0x1e, 0x01, 0x3f,
    0x52, 0x6e, 0x3a, 0x3f, 0x93, 0xd1, 0x05, 0xc0, 0x6e, 0x00, 0x29, 0xc0,
    0x81, 0xc4, 0xac, 0x3e, 0xfd, 0x9d, 0x99, 0xbf, 0xc0, 0xe5, 0x3f, 0x3f,
    0xe3, 0x75, 0x21, 0x3d, 0xd4, 0x27, 0xc3, 0xbe, 0x45, 0x51, 0xc9, 0xbf,
    0x70, 0x4c, 0x09, 0x3e, 0x91, 0xcd, 0xed, 0xbf, 0x08, 0x3e, 0x79, 0xc0,
    0xc9, 0x4e, 0xee, 0xbf, 0x59, 0x96, 0xe2, 0xbf, 0x11, 0xec, 0xef, 0xbf,
    0x81, 0xd3, 0x18, 0xbf, 0x29, 0x9b, 0x9f, 0xbd, 0xe3, 0x8d, 0x2b, 0x40,
    0x24, 0xae, 0x09, 0x40, 0x1e, 0x28, 0xb3, 0xbf, 0x78, 0xa3, 0xdc, 0x3f,
    0xb7, 0xec, 0x38, 0x3f, 0x62, 0xf8, 0x4c, 0xbe, 0x0e, 0x10, 0xa0, 0xbe,
    0x25, 0xf1, 0xe5, 0x3f, 0x70, 0x1e, 0x1a, 0xbe, 0x5d, 0xf2, 0xdd, 0x3f,
    0xdc, 0x30, 0x3d, 0x40, 0x9c, 0x64, 0x04, 0x40, 0x2c, 0xc5, 0x22, 0x40,
    0x43, 0x85, 0x20, 0x40, 0xe5, 0xeb, 0x64, 0x3f, 0x47, 0x31, 0x94, 0x3f,
    0xfb, 0xb3, 0x99, 0x3f, 0xc5, 0x4d, 0xeb, 0x3f, 0xad, 0x89, 0x86, 0x3f,
    0xbd, 0x9e, 0x4c, 0xbe, 0x6c, 0xd2, 0xf8, 0x3e, 0xf6, 0xad, 0xb3, 0xbe,
    0x40, 0x92, 0x83, 0x3e, 0x54, 0x6b, 0x8b, 0xbe, 0x50, 0x05, 0xb9, 0x3d,
    0x40, 0x2a, 0xd3, 0x3e, 0xb9, 0x21, 0x59, 0xc0, 0x71, 0xbd, 0x14, 0x40,
    0x29, 0x9e, 0x62, 0x3f, 0x87, 0x1f, 0x61, 0x3f, 0x7a, 0xb0, 0x72, 0x3e,
    0xa5, 0xc3, 0x25, 0xbe, 0x0f, 0x8e, 0x9b, 0xbd, 0x80, 0x43, 0x76, 0x3e,
    0xa0, 0x00, 0x3a, 0x3e, 0x93, 0xf1, 0xca, 0x3e, 0xf6, 0xb7, 0x02, 0xbf,
    0x00, 0xd0, 0xf6, 0x3a, 0xda, 0xd3, 0xc2, 0x3e, 0x9f, 0x26, 0xd2, 0xbd,
    0x40, 0xbd, 0xbf, 0xbd, 0x93, 0x78, 0x76, 0x3e, 0x80, 0xd7, 0x83, 0x3e,
    0x02, 0xa4, 0x3b, 0x3e, 0x38, 0xbb, 0x37, 0xbe, 0x0f, 0xb7, 0xd9, 0xbe,
    0xfe, 0xfe, 0xff, 0xff, 0x04, 0x00, 0x00, 0x00, 0x60, 0x00, 0x00, 0x00,
    0xa1, 0x78, 0x1f, 0x3f, 0xe2, 0xce, 0x23, 0x3f, 0x7c, 0xc8, 0xb3, 0x3f,
    0x38, 0xa9, 0xcc, 0xbd, 0x5a, 0xe8, 0x60, 0x3f, 0xb1, 0xac, 0xdb, 0xbf,
    0x9b, 0xd0, 0x6e, 0xbd, 0x95, 0xb8, 0x58, 0xba, 0x08, 0x62, 0xfa, 0xbd,
    0x5c, 0x25, 0xd4, 0xbe, 0x79, 0x67, 0x99, 0xbe, 0xd0, 0x4e, 0x27, 0xbf,
    0xac, 0x8b, 0xfb, 0x3d, 0x9d, 0xfa, 0x43, 0x3f, 0xa1, 0xf5, 0x43, 0x3f,
    0x47, 0x78, 0x2a, 0xbf, 0x90, 0xe5, 0x07, 0x3d, 0x0b, 0xf0, 0x8d, 0xbe,
    0x9a, 0x9e, 0x86, 0xc0, 0x29, 0x3f, 0x78, 0x3e, 0xeb, 0x10, 0xa5, 0xc0,
    0x33, 0xa0, 0x3a, 0x40, 0xab, 0x2e, 0x53, 0xc0, 0xa6, 0x0d, 0xe2, 0x3e,
    0x68, 0xfa, 0xff, 0xff, 0x6c, 0xfa, 0xff, 0xff, 0x0f, 0x00, 0x00, 0x00,
    0x4d, 0x4c, 0x49, 0x52, 0x20, 0x43, 0x6f, 0x6e, 0x76, 0x65, 0x72, 0x74,
    0x65, 0x64, 0x2e, 0x00, 0x01, 0x00, 0x00, 0x00, 0x14, 0x00, 0x00, 0x00,
    0x00, 0x00, 0x0e, 0x00, 0x18, 0x00, 0x14, 0x00, 0x10, 0x00, 0x0c, 0x00,
    0x08, 0x00, 0x04, 0x00, 0x0e, 0x00, 0x00, 0x00, 0x14, 0x00, 0x00, 0x00,
    0x1c, 0x00, 0x00, 0x00, 0x24, 0x01, 0x00, 0x00, 0x28, 0x01, 0x00, 0x00,
    0x2c, 0x01, 0x00, 0x00, 0x04, 0x00, 0x00, 0x00, 0x6d, 0x61, 0x69, 0x6e,
    0x00, 0x00, 0x00, 0x00, 0x04, 0x00, 0x00, 0x00, 0xcc, 0x00, 0x00, 0x00,
    0x84, 0x00, 0x00, 0x00, 0x50, 0x00, 0x00, 0x00, 0x14, 0x00, 0x00, 0x00,
    0x00, 0x00, 0x0e, 0x00, 0x1a, 0x00, 0x14, 0x00, 0x10, 0x00, 0x0c, 0x00,
    0x0b, 0x00, 0x04, 0x00, 0x0e, 0x00, 0x00, 0x00, 0x1c, 0x00, 0x00, 0x00,
    0x00, 0x00, 0x00, 0x09, 0x1c, 0x00, 0x00, 0x00, 0x20, 0x00, 0x00, 0x00,
    0x01, 0x00, 0x00, 0x00, 0x00, 0x00, 0x06, 0x00, 0x08, 0x00, 0x04, 0x00,
    0x06, 0x00, 0x00, 0x00, 0x00, 0x00, 0x80, 0x3f, 0x01, 0x00, 0x00, 0x00,
    0x0a, 0x00, 0x00, 0x00, 0x01, 0x00, 0x00, 0x00, 0x09, 0x00, 0x00, 0x00,
    0x9a, 0xff, 0xff, 0xff, 0x10, 0x00, 0x00, 0x00, 0x00, 0x00, 0x00, 0x08,
    0x0c, 0x00, 0x00, 0x00, 0x10, 0x00, 0x00, 0x00, 0x30, 0xfb, 0xff, 0xff,
    0x01, 0x00, 0x00, 0x00, 0x09, 0x00, 0x00, 0x00, 0x03, 0x00, 0x00, 0x00,
    0x08, 0x00, 0x00, 0x00, 0x01, 0x00, 0x00, 0x00, 0x03, 0x00, 0x00, 0x00,
    0xca, 0xff, 0xff, 0xff, 0x10, 0x00, 0x00, 0x00, 0x00, 0x00, 0x00, 0x08,
    0x10, 0x00, 0x00, 0x00, 0x14, 0x00, 0x00, 0x00, 0xba, 0xff, 0xff, 0xff,
    0x00, 0x00, 0x00, 0x01, 0x01, 0x00, 0x00, 0x00, 0x08, 0x00, 0x00, 0x00,
    0x03, 0x00, 0x00, 0x00, 0x07, 0x00, 0x00, 0x00, 0x02, 0x00, 0x00, 0x00,
    0x04, 0x00, 0x00, 0x00, 0x00, 0x00, 0x0e, 0x00, 0x16, 0x00, 0x00, 0x00,
    0x10, 0x00, 0x0c, 0x00, 0x0b, 0x00, 0x04, 0x00, 0x0e, 0x00, 0x00, 0x00,
    0x18, 0x00, 0x00, 0x00, 0x00, 0x00, 0x00, 0x08, 0x18, 0x00, 0x00, 0x00,
    0x1c, 0x00, 0x00, 0x00, 0x00, 0x00, 0x06, 0x00, 0x08, 0x00, 0x07, 0x00,
    0x06, 0x00, 0x00, 0x00, 0x00, 0x00, 0x00, 0x01, 0x01, 0x00, 0x00, 0x00,
    0x07, 0x00, 0x00, 0x00, 0x03, 0x00, 0x00, 0x00, 0x00, 0x00, 0x00, 0x00,
    0x06, 0x00, 0x00, 0x00, 0x05, 0x00, 0x00, 0x00, 0x01, 0x00, 0x00, 0x00,
    0x0a, 0x00, 0x00, 0x00, 0x01, 0x00, 0x00, 0x00, 0x00, 0x00, 0x00, 0x00,
    0x0b, 0x00, 0x00, 0x00, 0xf8, 0x03, 0x00, 0x00, 0xa0, 0x03, 0x00, 0x00,
    0x48, 0x03, 0x00, 0x00, 0x0c, 0x03, 0x00, 0x00, 0xd0, 0x02, 0x00, 0x00,
    0x74, 0x02, 0x00, 0x00, 0x24, 0x02, 0x00, 0x00, 0x84, 0x01, 0x00, 0x00,
    0xe4, 0x00, 0x00, 0x00, 0x60, 0x00, 0x00, 0x00, 0x04, 0x00, 0x00, 0x00,
    0x4a, 0xfc, 0xff, 0xff, 0x00, 0x00, 0x00, 0x01, 0x14, 0x00, 0x00, 0x00,
    0x1c, 0x00, 0x00, 0x00, 0x1c, 0x00, 0x00, 0x00, 0x0b, 0x00, 0x00, 0x00,
    0x34, 0x00, 0x00, 0x00, 0x02, 0x00, 0x00, 0x00, 0xff, 0xff, 0xff, 0xff,
    0x03, 0x00, 0x00, 0x00, 0x34, 0xfc, 0xff, 0xff, 0x1b, 0x00, 0x00, 0x00,
    0x53, 0x74, 0x61, 0x74, 0x65, 0x66, 0x75, 0x6c, 0x50, 0x61, 0x72, 0x74,
    0x69, 0x74, 0x69, 0x6f, 0x6e, 0x65, 0x64, 0x43, 0x61, 0x6c, 0x6c, 0x5f,
    0x31, 0x3a, 0x30, 0x00, 0x02, 0x00, 0x00, 0x00, 0x01, 0x00, 0x00, 0x00,
    0x03, 0x00, 0x00, 0x00, 0xa2, 0xfc, 0xff, 0xff, 0x00, 0x00, 0x00, 0x01,
    0x14, 0x00, 0x00, 0x00, 0x1c, 0x00, 0x00, 0x00, 0x1c, 0x00, 0x00, 0x00,
    0x0a, 0x00, 0x00, 0x00, 0x5c, 0x00, 0x00, 0x00, 0x02, 0x00, 0x00, 0x00,
    0xff, 0xff, 0xff, 0xff, 0x03, 0x00, 0x00, 0x00, 0x8c, 0xfc, 0xff, 0xff,
    0x40, 0x00, 0x00, 0x00, 0x73, 0x65, 0x71, 0x75, 0x65, 0x6e, 0x74, 0x69,
    0x61, 0x6c, 0x5f, 0x31, 0x5f, 0x31, 0x2f, 0x64, 0x65, 0x6e, 0x73, 0x65,
    0x5f, 0x35, 0x5f, 0x31, 0x2f, 0x4d, 0x61, 0x74, 0x4d, 0x75, 0x6c, 0x3b,
    0x73, 0x65, 0x71, 0x75, 0x65, 0x6e, 0x74, 0x69, 0x61, 0x6c, 0x5f, 0x31,
    0x5f, 0x31, 0x2f, 0x64, 0x65, 0x6e, 0x73, 0x65, 0x5f, 0x35, 0x5f, 0x31,
    0x2f, 0x42, 0x69, 0x61, 0x73, 0x41, 0x64, 0x64, 0x00, 0x00, 0x00, 0x00,
    0x02, 0x00, 0x00, 0x00, 0x01, 0x00, 0x00, 0x00, 0x03, 0x00, 0x00, 0x00,
    0x22, 0xfd, 0xff, 0xff, 0x00, 0x00, 0x00, 0x01, 0x14, 0x00, 0x00, 0x00,
    0x1c, 0x00, 0x00, 0x00, 0x1c, 0x00, 0x00, 0x00, 0x09, 0x00, 0x00, 0x00,
    0x78, 0x00, 0x00, 0x00, 0x02, 0x00, 0x00, 0x00, 0xff, 0xff, 0xff, 0xff,
    0x08, 0x00, 0x00, 0x00, 0x0c, 0xfd, 0xff, 0xff, 0x5e, 0x00, 0x00, 0x00,
    0x73, 0x65, 0x71, 0x75, 0x65, 0x6e, 0x74, 0x69, 0x61, 0x6c, 0x5f, 0x31,
    0x5f, 0x31, 0x2f, 0x64, 0x65, 0x6e, 0x73, 0x65, 0x5f, 0x34, 0x5f, 0x31,
    0x2f, 0x4d, 0x61, 0x74, 0x4d, 0x75, 0x6c, 0x3b, 0x73, 0x65, 0x71, 0x75,
    0x65, 0x6e, 0x74, 0x69, 0x61, 0x6c, 0x5f, 0x31, 0x5f, 0x31, 0x2f, 0x64,
    0x65, 0x6e, 0x73, 0x65, 0x5f, 0x34, 0x5f, 0x31, 0x2f, 0x52, 0x65, 0x6c,
    0x75, 0x3b, 0x73, 0x65, 0x71, 0x75, 0x65, 0x6e, 0x74, 0x69, 0x61, 0x6c,
    0x5f, 0x31, 0x5f, 0x31, 0x2f, 0x64, 0x65, 0x6e, 0x73, 0x65, 0x5f, 0x34,
    0x5f, 0x31, 0x2f, 0x42, 0x69, 0x61, 0x73, 0x41, 0x64, 0x64, 0x00, 0x00,
    0x02, 0x00, 0x00, 0x00, 0x01, 0x00, 0x00, 0x00, 0x08, 0x00, 0x00, 0x00,
    0xbe, 0xfd, 0xff, 0xff, 0x00, 0x00, 0x00, 0x01, 0x14, 0x00, 0x00, 0x00,
    0x1c, 0x00, 0x00, 0x00, 0x1c, 0x00, 0x00, 0x00, 0x08, 0x00, 0x00, 0x00,
    0x78, 0x00, 0x00, 0x00, 0x02, 0x00, 0x00, 0x00, 0xff, 0xff, 0xff, 0xff,
    0x10, 0x00, 0x00, 0x00, 0xa8, 0xfd, 0xff, 0xff, 0x5e, 0x00, 0x00, 0x00,
    0x73, 0x65, 0x71, 0x75, 0x65, 0x6e, 0x74, 0x69, 0x61, 0x6c, 0x5f, 0x31,
    0x5f, 0x31, 0x2f, 0x64, 0x65, 0x6e, 0x73, 0x65, 0x5f, 0x33, 0x5f, 0x31,
    0x2f, 0x4d, 0x61, 0x74, 0x4d, 0x75, 0x6c, 0x3b, 0x73, 0x65, 0x71, 0x75,
    0x65, 0x6e, 0x74, 0x69, 0x61, 0x6c, 0x5f, 0x31, 0x5f, 0x31, 0x2f, 0x64,
    0x65, 0x6e, 0x73, 0x65, 0x5f, 0x33, 0x5f, 0x31, 0x2f, 0x52, 0x65, 0x6c,
    0x75, 0x3b, 0x73, 0x65, 0x71, 0x75, 0x65, 0x6e, 0x74, 0x69, 0x61, 0x6c,
    0x5f, 0x31, 0x5f, 0x31, 0x2f, 0x64, 0x65, 0x6e, 0x73, 0x65, 0x5f, 0x33,
    0x5f, 0x31, 0x2f, 0x42, 0x69, 0x61, 0x73, 0x41, 0x64, 0x64, 0x00, 0x00,
    0x02, 0x00, 0x00, 0x00, 0x01, 0x00, 0x00, 0x00, 0x10, 0x00, 0x00, 0x00,
    0xae, 0xfe, 0xff, 0xff, 0x00, 0x00, 0x00, 0x01, 0x10, 0x00, 0x00, 0x00,
    0x10, 0x00, 0x00, 0x00, 0x07, 0x00, 0x00, 0x00, 0x2c, 0x00, 0x00, 0x00,
    0x34, 0xfe, 0xff, 0xff, 0x1f, 0x00, 0x00, 0x00, 0x73, 0x65, 0x71, 0x75,
    0x65, 0x6e, 0x74, 0x69, 0x61, 0x6c, 0x5f, 0x31, 0x5f, 0x31, 0x2f, 0x64,
    0x65, 0x6e, 0x73, 0x65, 0x5f, 0x33, 0x5f, 0x31, 0x2f, 0x4d, 0x61, 0x74,
    0x4d, 0x75, 0x6c, 0x00, 0x02, 0x00, 0x00, 0x00, 0x10, 0x00, 0x00, 0x00,
    0x0a, 0x00, 0x00, 0x00, 0xfa, 0xfe, 0xff, 0xff, 0x00, 0x00, 0x00, 0x01,
    0x10, 0x00, 0x00, 0x00, 0x10, 0x00, 0x00, 0x00, 0x06, 0x00, 0x00, 0x00,
    0x3c, 0x00, 0x00, 0x00, 0x80, 0xfe, 0xff, 0xff, 0x2f, 0x00, 0x00, 0x00,
    0x73, 0x65, 0x71, 0x75, 0x65, 0x6e, 0x74, 0x69, 0x61, 0x6c, 0x5f, 0x31,
    0x5f, 0x31, 0x2f, 0x64, 0x65, 0x6e, 0x73, 0x65, 0x5f, 0x33, 0x5f, 0x31,
    0x2f, 0x42, 0x69, 0x61, 0x73, 0x41, 0x64, 0x64, 0x2f, 0x52, 0x65, 0x61,
    0x64, 0x56, 0x61, 0x72, 0x69, 0x61, 0x62, 0x6c, 0x65, 0x4f, 0x70, 0x00,
    0x01, 0x00, 0x00, 0x00, 0x10, 0x00, 0x00, 0x00, 0x52, 0xff, 0xff, 0xff,
    0x00, 0x00, 0x00, 0x01, 0x10, 0x00, 0x00, 0x00, 0x10, 0x00, 0x00, 0x00,
    0x05, 0x00, 0x00, 0x00, 0x1c, 0x00, 0x00, 0x00, 0xd8, 0xfe, 0xff, 0xff,
    0x0f, 0x00, 0x00, 0x00, 0x61, 0x72, 0x69, 0x74, 0x68, 0x2e, 0x63, 0x6f,
    0x6e, 0x73, 0x74, 0x61, 0x6e, 0x74, 0x33, 0x00, 0x01, 0x00, 0x00, 0x00,
    0x08, 0x00, 0x00, 0x00, 0x8a, 0xff, 0xff, 0xff, 0x00, 0x00, 0x00, 0x01,
    0x10, 0x00, 0x00, 0x00, 0x10, 0x00, 0x00, 0x00, 0x04, 0x00, 0x00, 0x00,
    0x1c, 0x00, 0x00, 0x00, 0x10, 0xff, 0xff, 0xff, 0x0f, 0x00, 0x00, 0x00,
    0x61, 0x72, 0x69, 0x74, 0x68, 0x2e, 0x63, 0x6f, 0x6e, 0x73, 0x74, 0x61,
    0x6e, 0x74, 0x32, 0x00, 0x01, 0x00, 0x00, 0x00, 0x03, 0x00, 0x00, 0x00,
    0xc2, 0xff, 0xff, 0xff, 0x00, 0x00, 0x00, 0x01, 0x10, 0x00, 0x00, 0x00,
    0x10, 0x00, 0x00, 0x00, 0x03, 0x00, 0x00, 0x00, 0x1c, 0x00, 0x00, 0x00,
    0x48, 0xff, 0xff, 0xff, 0x0f, 0x00, 0x00, 0x00, 0x61, 0x72, 0x69, 0x74,
    0x68, 0x2e, 0x63, 0x6f, 0x6e, 0x73, 0x74, 0x61, 0x6e, 0x74, 0x31, 0x00,
    0x02, 0x00, 0x00, 0x00, 0x08, 0x00, 0x00, 0x00, 0x10, 0x00, 0x00, 0x00,
    0x00, 0x00, 0x16, 0x00, 0x18, 0x00, 0x14, 0x00, 0x00, 0x00, 0x10, 0x00,
    0x0c, 0x00, 0x08, 0x00, 0x00, 0x00, 0x00, 0x00, 0x00, 0x00, 0x07, 0x00,
    0x16, 0x00, 0x00, 0x00, 0x00, 0x00, 0x00, 0x01, 0x10, 0x00, 0x00, 0x00,
    0x10, 0x00, 0x00, 0x00, 0x02, 0x00, 0x00, 0x00, 0x1c, 0x00, 0x00, 0x00,
    0x9c, 0xff, 0xff, 0xff, 0x0e, 0x00, 0x00, 0x00, 0x61, 0x72, 0x69, 0x74,
    0x68, 0x2e, 0x63, 0x6f, 0x6e, 0x73, 0x74, 0x61, 0x6e, 0x74, 0x00, 0x00,
    0x02, 0x00, 0x00, 0x00, 0x03, 0x00, 0x00, 0x00, 0x08, 0x00, 0x00, 0x00,
    0x00, 0x00, 0x16, 0x00, 0x1c, 0x00, 0x18, 0x00, 0x00, 0x00, 0x14, 0x00,
    0x10, 0x00, 0x0c, 0x00, 0x00, 0x00, 0x00, 0x00, 0x08, 0x00, 0x07, 0x00,
    0x16, 0x00, 0x00, 0x00, 0x00, 0x00, 0x00, 0x01, 0x14, 0x00, 0x00, 0x00,
    0x20, 0x00, 0x00, 0x00, 0x20, 0x00, 0x00, 0x00, 0x01, 0x00, 0x00, 0x00,
    0x40, 0x00, 0x00, 0x00, 0x02, 0x00, 0x00, 0x00, 0xff, 0xff, 0xff, 0xff,
    0x0a, 0x00, 0x00, 0x00, 0x04, 0x00, 0x04, 0x00, 0x04, 0x00, 0x00, 0x00,
    0x20, 0x00, 0x00, 0x00, 0x73, 0x65, 0x72, 0x76, 0x69, 0x6e, 0x67, 0x5f,
    0x64, 0x65, 0x66, 0x61, 0x75, 0x6c, 0x74, 0x5f, 0x6b, 0x65, 0x72, 0x61,
    0x73, 0x5f, 0x74, 0x65, 0x6e, 0x73, 0x6f, 0x72, 0x5f, 0x34, 0x3a, 0x30,
    0x00, 0x00, 0x00, 0x00, 0x02, 0x00, 0x00, 0x00, 0x01, 0x00, 0x00, 0x00,
    0x0a, 0x00, 0x00, 0x00, 0x02, 0x00, 0x00, 0x00, 0x20, 0x00, 0x00, 0x00,
    0x04, 0x00, 0x00, 0x00, 0xf4, 0xff, 0xff, 0xff, 0x19, 0x00, 0x00, 0x00,
    0x00, 0x00, 0x00, 0x19, 0x0c, 0x00, 0x0c, 0x00, 0x0b, 0x00, 0x00, 0x00,
    0x00, 0x00, 0x04, 0x00, 0x0c, 0x00, 0x00, 0x00, 0x09, 0x00, 0x00, 0x00,
    0x00, 0x00, 0x00, 0x09};
unsigned int model_tflite_len = 3460;
